unsigned char model[] = {28,
0,0,0,84,70,76,51,20,0,32,0,28,
0,24,0,20,0,16,0,12,0,0,0,8,
0,4,0,20,0,0,0,28,0,0,0,136,
0,0,0,224,0,0,0,76,6,0,0,92,
6,0,0,68,12,0,0,3,0,0,0,1,
0,0,0,4,0,0,0,102,249,255,255,12,
0,0,0,28,0,0,0,60,0,0,0,15,
0,0,0,115,101,114,118,105,110,103,95,100,
101,102,97,117,108,116,0,1,0,0,0,4,
0,0,0,148,255,255,255,10,0,0,0,4,
0,0,0,8,0,0,0,111,117,116,112,117,
116,95,48,0,0,0,0,1,0,0,0,4,
0,0,0,86,250,255,255,4,0,0,0,11,
0,0,0,105,110,112,117,116,95,108,97,121,
101,114,0,2,0,0,0,52,0,0,0,4,
0,0,0,220,255,255,255,13,0,0,0,4,
0,0,0,19,0,0,0,67,79,78,86,69,
82,83,73,79,78,95,77,69,84,65,68,65,
84,65,0,8,0,12,0,8,0,4,0,8,
0,0,0,12,0,0,0,4,0,0,0,19,
0,0,0,109,105,110,95,114,117,110,116,105,
109,101,95,118,101,114,115,105,111,110,0,14,
0,0,0,104,5,0,0,96,5,0,0,48,
5,0,0,20,5,0,0,228,4,0,0,212,
2,0,0,4,1,0,0,180,0,0,0,172,
0,0,0,164,0,0,0,156,0,0,0,148,
0,0,0,116,0,0,0,4,0,0,0,6,
251,255,255,4,0,0,0,96,0,0,0,12,
0,0,0,8,0,14,0,8,0,4,0,8,
0,0,0,16,0,0,0,40,0,0,0,0,
0,6,0,8,0,4,0,6,0,0,0,4,
0,0,0,1,0,0,0,234,3,0,0,12,
0,24,0,20,0,16,0,12,0,4,0,12,
0,0,0,116,118,82,89,38,86,151,16,2,
0,0,0,2,0,0,0,4,0,0,0,6,
0,0,0,50,46,50,49,46,48,0,0,114,
251,255,255,4,0,0,0,16,0,0,0,49,
46,49,52,46,48,0,0,0,0,0,0,0,
0,0,0,140,245,255,255,144,245,255,255,148,
245,255,255,152,245,255,255,158,251,255,255,4,
0,0,0,64,0,0,0,209,152,106,60,65,
108,39,60,161,220,91,61,136,74,253,188,224,
77,238,59,24,35,200,189,57,178,129,62,18,
155,225,61,148,198,216,188,35,94,57,62,19,
113,25,62,239,243,128,61,39,51,98,61,202,
156,184,61,93,172,29,189,32,86,36,62,234,
251,255,255,4,0,0,0,192,1,0,0,23,
200,187,190,182,138,25,63,82,38,189,190,180,
246,27,63,204,220,68,62,201,4,109,191,197,
27,61,62,122,28,162,190,131,92,152,63,169,
77,225,189,157,215,51,190,197,146,248,62,80,
106,123,190,28,161,151,62,81,92,31,191,165,
28,161,63,70,150,43,63,1,31,194,190,215,
14,148,62,127,204,199,190,164,69,204,190,100,
137,17,191,52,55,98,63,239,191,226,62,106,
233,162,62,89,107,40,61,252,212,57,190,245,
87,103,62,75,252,159,190,128,8,180,62,127,
194,169,61,228,59,35,191,61,169,142,62,223,
224,41,61,136,113,193,62,139,124,203,62,155,
195,8,63,158,112,135,61,248,118,42,59,171,
179,169,62,186,227,206,190,29,0,209,190,110,
55,126,191,1,174,44,61,26,38,112,191,191,
236,193,59,192,163,146,190,254,103,172,62,73,
179,21,62,183,90,243,189,158,76,190,63,5,
155,12,62,101,134,8,191,55,167,103,189,35,
254,118,189,0,117,72,190,251,79,243,190,99,
232,38,63,187,204,228,61,130,7,145,189,47,
24,184,62,241,56,97,190,217,18,76,62,10,
104,121,191,226,229,100,189,96,77,32,191,63,
107,187,62,116,62,70,60,27,137,27,190,122,
68,14,60,104,192,45,62,81,178,177,61,160,
54,110,191,239,2,178,189,57,184,193,62,40,
30,224,190,63,105,56,190,142,173,6,62,159,
82,228,191,154,24,165,62,14,27,134,190,137,
3,97,62,32,140,166,62,233,131,21,63,154,
68,108,191,126,30,46,62,62,155,128,62,57,
156,187,189,218,106,187,190,154,104,234,190,182,
181,173,62,133,134,162,62,121,146,132,190,61,
157,142,62,12,237,145,62,181,103,215,62,11,
239,15,190,242,236,4,63,40,36,159,61,170,
157,170,62,154,0,193,62,13,253,193,62,70,
111,49,60,115,1,225,190,168,21,199,190,92,
74,177,61,27,155,5,191,142,228,24,190,253,
148,176,62,110,8,134,190,87,113,4,62,166,
79,11,63,182,253,255,255,4,0,0,0,0,
2,0,0,207,32,11,191,5,132,15,63,26,
123,136,63,173,169,145,62,92,91,85,187,207,
48,184,190,230,82,155,191,217,233,183,63,21,
126,3,63,20,54,151,191,220,56,174,62,184,
64,178,190,77,49,153,62,64,16,245,61,11,
148,75,191,203,126,33,62,206,166,103,189,86,
138,222,61,175,64,136,62,165,146,91,61,239,
171,1,189,60,141,126,62,232,54,105,62,207,
31,6,191,236,6,235,190,204,80,175,61,114,
12,195,62,163,56,25,189,190,37,82,190,225,
171,103,190,152,215,8,190,195,171,6,191,135,
231,204,59,22,25,49,63,76,39,153,62,178,
91,161,62,244,151,5,63,157,46,200,62,154,
132,19,191,105,141,171,63,210,38,245,62,240,
196,143,191,18,229,182,62,213,33,159,61,75,
106,239,190,77,22,29,190,38,22,46,191,169,
242,99,61,71,127,77,189,64,217,24,63,106,
70,116,190,146,103,79,191,254,33,213,190,193,
102,225,190,18,55,246,61,139,220,11,63,149,
34,246,190,66,222,136,190,146,61,65,63,147,
244,138,61,66,74,147,191,109,112,201,62,105,
175,238,190,107,61,52,60,55,20,25,191,48,
221,161,189,107,243,37,63,246,247,128,62,77,
251,170,62,49,211,90,190,175,112,27,191,219,
63,156,63,145,216,169,62,148,188,44,191,28,
223,13,62,233,66,215,189,41,208,34,190,173,
205,41,62,119,162,9,191,14,235,22,190,8,
179,8,62,169,53,45,191,41,241,97,191,178,
70,225,190,236,80,57,61,87,43,141,62,248,
174,23,191,9,252,95,191,88,110,235,61,65,
35,99,190,77,164,16,191,7,150,244,62,138,
80,138,190,217,121,31,63,138,102,164,189,65,
37,63,62,127,193,43,63,255,120,55,190,41,
22,25,191,59,174,158,62,16,126,230,62,229,
99,199,62,245,131,145,63,170,105,168,191,89,
206,71,189,121,26,197,63,185,61,110,191,67,
170,198,62,52,195,12,63,127,32,81,61,231,
169,14,63,9,76,31,63,250,36,2,190,78,
96,40,63,103,189,70,63,236,154,37,63,69,
102,32,62,103,195,16,191,222,0,160,191,224,
68,178,63,217,54,31,63,249,12,55,191,235,
182,214,62,55,246,69,190,63,126,156,62,108,
51,203,61,243,71,63,191,195,135,120,190,194,
255,255,255,4,0,0,0,32,0,0,0,91,
99,170,63,61,255,87,189,150,153,53,63,115,
7,194,63,148,78,74,63,1,223,163,191,88,
41,29,191,111,173,148,63,238,255,255,255,4,
0,0,0,4,0,0,0,234,86,146,188,0,
0,6,0,8,0,4,0,6,0,0,0,4,
0,0,0,32,0,0,0,17,249,75,58,63,
16,84,189,120,155,61,59,248,37,153,61,78,
133,172,188,155,140,19,62,55,93,127,61,212,
254,179,59,48,250,255,255,52,250,255,255,15,
0,0,0,77,76,73,82,32,67,111,110,118,
101,114,116,101,100,46,0,1,0,0,0,20,
0,0,0,0,0,14,0,24,0,20,0,16,
0,12,0,8,0,4,0,14,0,0,0,20,
0,0,0,28,0,0,0,24,1,0,0,28,
1,0,0,32,1,0,0,4,0,0,0,109,
97,105,110,0,0,0,0,4,0,0,0,192,
0,0,0,120,0,0,0,52,0,0,0,16,
0,0,0,0,0,10,0,16,0,12,0,8,
0,4,0,10,0,0,0,12,0,0,0,16,
0,0,0,1,0,0,0,1,0,0,0,10,
0,0,0,1,0,0,0,9,0,0,0,206,
255,255,255,16,0,0,0,0,0,0,8,12,
0,0,0,16,0,0,0,220,250,255,255,1,
0,0,0,9,0,0,0,3,0,0,0,8,
0,0,0,3,0,0,0,2,0,0,0,0,
0,14,0,20,0,0,0,16,0,12,0,11,
0,4,0,14,0,0,0,16,0,0,0,0,
0,0,8,16,0,0,0,20,0,0,0,186,
255,255,255,0,0,0,1,1,0,0,0,8,
0,0,0,3,0,0,0,7,0,0,0,4,
0,0,0,1,0,0,0,0,0,14,0,22,
0,0,0,16,0,12,0,11,0,4,0,14,
0,0,0,24,0,0,0,0,0,0,8,24,
0,0,0,28,0,0,0,0,0,6,0,8,
0,7,0,6,0,0,0,0,0,0,1,1,
0,0,0,7,0,0,0,3,0,0,0,0,
0,0,0,5,0,0,0,6,0,0,0,1,
0,0,0,10,0,0,0,1,0,0,0,0,
0,0,0,11,0,0,0,60,4,0,0,188,
3,0,0,92,3,0,0,12,3,0,0,188,
2,0,0,112,2,0,0,12,2,0,0,120,
1,0,0,220,0,0,0,96,0,0,0,4,
0,0,0,6,252,255,255,0,0,0,1,20,
0,0,0,28,0,0,0,28,0,0,0,11,
0,0,0,52,0,0,0,2,0,0,0,255,
255,255,255,1,0,0,0,240,251,255,255,27,
0,0,0,83,116,97,116,101,102,117,108,80,
97,114,116,105,116,105,111,110,101,100,67,97,
108,108,95,49,58,48,0,2,0,0,0,1,
0,0,0,1,0,0,0,94,252,255,255,0,
0,0,1,20,0,0,0,28,0,0,0,28,
0,0,0,10,0,0,0,84,0,0,0,2,
0,0,0,255,255,255,255,1,0,0,0,72,
252,255,255,56,0,0,0,115,101,113,117,101,
110,116,105,97,108,95,49,47,100,101,110,115,
101,95,50,95,49,47,77,97,116,77,117,108,
59,115,101,113,117,101,110,116,105,97,108,95,
49,47,100,101,110,115,101,95,50,95,49,47,
65,100,100,0,0,0,0,2,0,0,0,1,
0,0,0,1,0,0,0,214,252,255,255,0,
0,0,1,20,0,0,0,28,0,0,0,28,
0,0,0,9,0,0,0,116,0,0,0,2,
0,0,0,255,255,255,255,8,0,0,0,192,
252,255,255,88,0,0,0,115,101,113,117,101,
110,116,105,97,108,95,49,47,100,101,110,115,
101,95,49,95,50,47,77,97,116,77,117,108,
59,115,101,113,117,101,110,116,105,97,108,95,
49,47,100,101,110,115,101,95,49,95,50,47,
82,101,108,117,59,115,101,113,117,101,110,116,
105,97,108,95,49,47,100,101,110,115,101,95,
49,95,50,47,66,105,97,115,65,100,100,0,
0,0,0,2,0,0,0,1,0,0,0,8,
0,0,0,110,253,255,255,0,0,0,1,20,
0,0,0,28,0,0,0,28,0,0,0,8,
0,0,0,108,0,0,0,2,0,0,0,255,
255,255,255,16,0,0,0,88,253,255,255,82,
0,0,0,115,101,113,117,101,110,116,105,97,
108,95,49,47,100,101,110,115,101,95,49,47,
77,97,116,77,117,108,59,115,101,113,117,101,
110,116,105,97,108,95,49,47,100,101,110,115,
101,95,49,47,82,101,108,117,59,115,101,113,
117,101,110,116,105,97,108,95,49,47,100,101,
110,115,101,95,49,47,66,105,97,115,65,100,
100,0,0,2,0,0,0,1,0,0,0,16,
0,0,0,122,254,255,255,0,0,0,1,16,
0,0,0,16,0,0,0,7,0,0,0,68,
0,0,0,216,253,255,255,54,0,0,0,115,
101,113,117,101,110,116,105,97,108,95,49,47,
100,101,110,115,101,95,49,47,82,101,108,117,
59,115,101,113,117,101,110,116,105,97,108,95,
49,47,100,101,110,115,101,95,49,47,66,105,
97,115,65,100,100,0,0,1,0,0,0,16,
0,0,0,218,254,255,255,0,0,0,1,16,
0,0,0,16,0,0,0,6,0,0,0,40,
0,0,0,56,254,255,255,27,0,0,0,115,
101,113,117,101,110,116,105,97,108,95,49,47,
100,101,110,115,101,95,49,47,77,97,116,77,
117,108,0,2,0,0,0,16,0,0,0,7,
0,0,0,34,255,255,255,0,0,0,1,16,
0,0,0,16,0,0,0,5,0,0,0,44,
0,0,0,128,254,255,255,29,0,0,0,115,
101,113,117,101,110,116,105,97,108,95,49,47,
100,101,110,115,101,95,49,95,50,47,77,97,
116,77,117,108,0,0,0,2,0,0,0,8,
0,0,0,16,0,0,0,110,255,255,255,0,
0,0,1,16,0,0,0,16,0,0,0,4,
0,0,0,44,0,0,0,204,254,255,255,29,
0,0,0,115,101,113,117,101,110,116,105,97,
108,95,49,47,100,101,110,115,101,95,50,95,
49,47,77,97,116,77,117,108,0,0,0,2,
0,0,0,1,0,0,0,8,0,0,0,186,
255,255,255,0,0,0,1,16,0,0,0,16,
0,0,0,3,0,0,0,40,0,0,0,24,
255,255,255,26,0,0,0,115,101,113,117,101,
110,116,105,97,108,95,49,47,100,101,110,115,
101,95,50,95,49,47,65,100,100,0,0,1,
0,0,0,1,0,0,0,0,0,22,0,24,
0,20,0,0,0,16,0,12,0,8,0,0,
0,0,0,0,0,7,0,22,0,0,0,0,
0,0,1,16,0,0,0,16,0,0,0,2,
0,0,0,72,0,0,0,116,255,255,255,58,
0,0,0,115,101,113,117,101,110,116,105,97,
108,95,49,47,100,101,110,115,101,95,49,95,
50,47,82,101,108,117,59,115,101,113,117,101,
110,116,105,97,108,95,49,47,100,101,110,115,
101,95,49,95,50,47,66,105,97,115,65,100,
100,0,0,1,0,0,0,8,0,0,0,0,
0,22,0,28,0,24,0,0,0,20,0,16,
0,12,0,0,0,0,0,8,0,7,0,22,
0,0,0,0,0,0,1,20,0,0,0,32,
0,0,0,32,0,0,0,1,0,0,0,60,
0,0,0,2,0,0,0,255,255,255,255,7,
0,0,0,4,0,4,0,4,0,0,0,29,
0,0,0,115,101,114,118,105,110,103,95,100,
101,102,97,117,108,116,95,105,110,112,117,116,
95,108,97,121,101,114,58,48,0,0,0,2,
0,0,0,1,0,0,0,7,0,0,0,2,
0,0,0,32,0,0,0,4,0,0,0,244,
255,255,255,14,0,0,0,0,0,0,14,12,
0,12,0,11,0,0,0,0,0,4,0,12,
0,0,0,9,0,0,0,0,0,0,9,};
unsigned int model_len = 3240;